<pad>	0
<unk>	0
<s>	0
</s>	0
▁t	-0
he	-1
▁a	-2
▁o	-3
in	-4
▁the	-5
re	-6
▁w	-7
▁of	-8
is	-9
er	-10
en	-11
▁h	-12
▁s	-13
it	-14
at	-15
on	-16
ed	-17
▁p	-18
▁m	-19
es	-20
▁c	-21
▁an	-22
▁f	-23
▁b	-24
▁in	-25
or	-26
an	-27
ou	-28
ar	-29
▁and	-30
▁to	-31
ic	-32
as	-33
▁th	-34
▁d	-35
ing	-36
▁l	-37
al	-38
ion	-39
▁n	-40
▁his	-41
om	-42
le	-43
▁wh	-44
us	-45
ot	-46
▁e	-47
▁g	-48
el	-49
ent	-50
ir	-51
ct	-52
im	-53
ve	-54
▁re	-55
▁he	-56
▁ha	-57
ut	-58
▁be	-59
ce	-60
il	-61
os	-62
et	-63
▁that	-64
ur	-65
ver	-66
▁T	-67
ly	-68
▁on	-69
▁wit	-70
▁I	-71
▁for	-72
▁"	-73
▁was	-74
ich	-75
▁with	-76
▁is	-77
ow	-78
ol	-79
id	-80
▁it	-81
▁which	-82
▁as	-83
▁con	-84
ul	-85
am	-86
▁not	-87
ch	-88
ation	-89
ig	-90
ay	-91
st	-92
▁by	-93
▁st	-94
▁pr	-95
un	-96
if	-97
▁their	-98
ous	-99
her	-100
ter	-101
ess	-102
▁The	-103
▁A	-104
ld	-105
ra	-106
ere	-107
▁have	-108
▁fr	-109
our	-110
ure	-111
▁al	-112
▁S	-113
▁ex	-114
em	-115
eni	-116
▁y	-117
qu	-118
--	-119
ity	-120
ies	-121
▁su	-122
▁v	-123
▁at	-124
enius	-125
ab	-126
ad	-127
ers	-128
iv	-129
ist	-130
▁M	-131
▁de	-132
op	-133
ain	-134
▁genius	-135
▁man	-136
▁this	-137
ht	-138
ect	-139
ary	-140
▁or	-141
▁who	-142
ud	-143
res	-144
▁C	-145
▁H	-146
▁ch	-147
ill	-148
od	-149
se	-150
▁com	-151
um	-152
▁from	-153
▁B	-154
ag	-155
▁but	-156
ate	-157
est	-158
▁him	-159
▁so	-160
reat	-161
pp	-162
▁had	-163
▁are	-164
ould	-165
ant	-166
ore	-167
▁un	-168
ose	-169
ac	-170
▁k	-171
sel	-172
▁has	-173
oun	-174
."	-175
▁P	-176
ions	-177
ri	-178
iter	-179
▁wor	-180
ci	-181
hen	-182
red	-183
▁W	-184
ind	-185
end	-186
th	-187
▁im	-188
act	-189
▁r	-190
▁int	-191
ear	-192
▁they	-193
▁se	-194
and	-195
▁ar	-196
▁great	-197
▁_	-198
ence	-199
▁all	-200
▁dis	-201
▁L	-202
pt	-203
rit	-204
▁ne	-205
▁were	-206
ome	-207
ive	-208
▁we	-209
ight	-210
art	-211
ke	-212
cc	-213
ge	-214
▁am	-215
▁one	-216
▁liter	-217
,"	-218
ame	-219
ast	-220
oug	-221
▁no	-222
▁ob	-223
▁them	-224
ust	-225
self	-226
▁sh	-227
ong	-228
erv	-229
▁po	-230
▁E	-231
ell	-232
wn	-233
▁R	-234
ass	-235
▁been	-236
ated	-237
ife	-238
uth	-239
▁F	-240
▁more	-241
▁my	-242
▁per	-243
ten	-244
▁char	-245
able	-246
ks	-247
ort	-248
ard	-249
bl	-250
all	-251
ious	-252
ap	-253
▁comp	-254
hed	-255
▁D	-256
▁ad	-257
ical	-258
ff	-259
▁us	-260
ven	-261
▁sp	-262
▁our	-263
▁when	-264
ost	-265
▁J	-266
▁men	-267
▁pro	-268
ory	-269
ie	-270
ther	-271
▁art	-272
ature	-273
▁own	-274
▁may	-275
▁its	-276
▁des	-277
▁charact	-278
ry	-279
▁than	-280
▁me	-281
very	-282
▁fe	-283
▁G	-284
ib	-285
ays	-286
▁literary	-287
ord	-288
▁life	-289
▁Th	-290
▁cont	-291
▁writ	-292
▁pre	-293
▁tr	-294
ment	-295
▁O	-296
▁[	-297
ign	-298
uthor	-299
▁some	-300
▁mind	-301
▁app	-302
▁those	-303
ings	-304
▁you	-305
ish	-306
not	-307
▁other	-308
ro	-309
.--	-310
▁character	-311
▁would	-312
per	-313
ations	-314
ject	-315
▁stud	-316
pl	-317
now	-318
up	-319
ress	-320
▁only	-321
▁poet	-322
ile	-323
ON	-324
ance	-325
▁It	-326
ual	-327
▁ind	-328
ult	-329
ER	-330
▁author	-331
▁ab	-332
ound	-333
▁into	-334
ens	-335
out	-336
▁himself	-337
lect	-338
oo	-339
ness	-340
▁even	-341
▁these	-342
ced	-343
vers	-344
cl	-345
ian	-346
ea	-347
its	-348
ful	-349
ied	-350
ubl	-351
ire	-352
uch	-353
▁most	-354
irst	-355
▁hist	-356
ine	-357
▁cl	-358
▁j	-359
co	-360
▁can	-361
▁pass	-362
ert	-363
▁will	-364
▁*	-365
▁often	-366
▁pl	-367
▁tim	-368
ished	-369
▁her	-370
▁en	-371
ition	-372
ces	-373
▁In	-374
ue	-375
▁obs	-376
▁know	-377
oot	-378
ren	-379
ough	-380
▁qu	-381
ec	-382
▁imp	-383
▁att	-384
▁1	-385
▁ag	-386
▁publ	-387
▁pres	-388
ted	-389
ears	-390
▁ent	-391
▁first	-392
age	-393
ought	-394
ike	-395
ames	-396
▁sub	-397
▁such	-398
ne	-399
cri	-400
▁could	-401
▁N	-402
led	-403
▁part	-404
ice	-405
der	-406
ents	-407
▁feel	-408
▁king	-409
▁prin	-410
ak	-411
urn	-412
▁res	-413
ide	-414
other	-415
▁never	-416
▁ra	-417
note	-418
▁cons	-419
ise	-420
ood	-421
ves	-422
Foot	-423
Footnote	-424
▁sa	-425
▁read	-426
olit	-427
▁work	-428
ters	-429
▁rem	-430
ount	-431
▁inf	-432
▁what	-433
ered	-434
▁pers	-435
▁V	-436
▁acc	-437
▁rep	-438
▁occ	-439
oy	-440
▁imag	-441
▁there	-442
▁He	-443
▁ph	-444
▁do	-445
▁This	-446
iend	-447
▁how	-448
▁fa	-449
▁op	-450
▁friend	-451
▁bec	-452
▁disco	-453
ip	-454
▁em	-455
▁James	-456
ath	-457
ived	-458
▁without	-459
ict	-460
▁let	-461
▁tra	-462
ather	-463
ang	-464
▁many	-465
ans	-466
▁hum	-467
▁same	-468
ely	-469
▁pur	-470
og	-471
ours	-472
ES	-473
fter	-474
▁any	-475
▁form	-476
▁whe	-477
ook	-478
▁up	-479
one	-480
the	-481
▁ca	-482
AR	-483
The	-484
ug	-485
ble	-486
ety	-487
▁inv	-488
▁conf	-489
▁while	-490
.]	-491
▁lo	-492
▁del	-493
▁le	-494
▁out	-495
uct	-496
▁too	-497
▁imagin	-498
▁like	-499
row	-500
▁might	-501
ular	-502
▁history	-503
▁vol	-504
ep	-505
itt	-506
ond	-507
▁ret	-508
▁dist	-509
▁ass	-510
erved	-511
▁long	-512
▁person	-513
▁over	-514
▁must	-515
▁public	-516
ck	-517
▁comm	-518
▁thought	-519
_,	-520
selves	-521
▁world	-522
old	-523
use	-524
ilos	-525
ilosop	-526
ree	-527
▁sc	-528
▁act	-529
ial	-530
ned	-531
▁age	-532
▁after	-533
ite	-534
ude	-535
▁aff	-536
▁An	-537
▁hab	-538
▁inc	-539
▁much	-540
▁whose	-541
ever	-542
▁rec	-543
▁yet	-544
▁every	-545
fore	-546
▁happ	-547
ade	-548
ark	-549
▁br	-550
▁But	-551
ities	-552
▁your	-553
▁if	-554
▁among	-555
ors	-556
▁lab	-557
oss	-558
▁philosop	-559
iff	-560
les	-561
▁exp	-562
▁day	-563
▁ins	-564
▁said	-565
▁nature	-566
▁found	-567
ily	-568
hing	-569
▁very	-570
ates	-571
▁ear	-572
▁str	-573
ility	-574
ised	-575
▁exc	-576
▁lear	-577
leas	-578
ists	-579
▁where	-580
▁tw	-581
▁works	-582
orm	-583
ways	-584
▁pain	-585
▁always	-586
▁gr	-587
▁ref	-588
ret	-589
▁fam	-590
▁compos	-591
ake	-592
hes	-593
ving	-594
▁prod	-595
▁time	-596
cept	-597
ating	-598
▁seem	-599
▁still	-600
ach	-601
ired	-602
▁cur	-603
erm	-604
crib	-605
▁mod	-606
▁inst	-607
▁inter	-608
▁subject	-609
▁themselves	-610
▁wr	-611
▁ext	-612
▁call	-613
▁la	-614
▁bet	-615
▁tast	-616
EL	-617
ple	-618
▁pleas	-619
▁then	-620
ty	-621
▁col	-622
▁literature	-623
we	-624
ures	-625
ible	-626
▁now	-627
▁soci	-628
▁Ch	-629
▁pow	-630
▁made	-631
▁should	-632
▁years	-633
ace	-634
ons	-635
ittle	-636
gl	-637
su	-638
ved	-639
ward	-640
ently	-641
ts	-642
ener	-643
▁dom	-644
▁mon	-645
▁new	-646
▁she	-647
▁again	-648
▁contem	-649
ged	-650
▁pe	-651
▁count	-652
▁state	-653
hy	-654
iar	-655
▁studies	-656
ith	-657
iness	-658
▁little	-659
eal	-660
ited	-661
▁sec	-662
estic	-663
EN	-664
vel	-665
eren	-666
ained	-667
▁under	-668
ope	-669
▁off	-670
▁When	-671
AN	-672
cla	-673
▁gl	-674
arch	-675
anc	-676
ative	-677
▁princi	-678
▁letters	-679
▁med	-680
▁domestic	-681
ning	-682
IN	-683
▁ac	-684
▁aw	-685
omet	-686
▁thr	-687
▁study	-688
▁before	-689
ild	-690
ened	-691
▁cir	-692
▁hon	-693
▁diff	-694
▁another	-695
▁society	-696
oc	-697
ople	-698
▁find	-699
▁well	-700
▁En	-701
▁ev	-702
inal	-703
▁sens	-704
▁fl	-705
ives	-706
▁rel	-707
▁people	-708
fect	-709
▁Sir	-710
▁sing	-711
ention	-712
▁ill	-713
▁spir	-714
ont	-715
▁add	-716
▁circ	-717
▁heart	-718
▁pursu	-719
▁country	-720
▁feelings	-721
US	-722
ism	-723
▁serv	-724
▁old	-725
▁crit	-726
usi	-727
ledge	-728
▁cour	-729
▁good	-730
▁father	-731
LE	-732
▁id	-733
▁Engl	-734
▁human	-735
▁solit	-736
▁somet	-737
▁itself	-738
TER	-739
ern	-740
▁mas	-741
▁two	-742
▁object	-743
▁others	-744
iew	-745
▁ce	-746
▁dep	-747
▁fre	-748
▁being	-749
▁however	-750
▁knowledge	-751
▁We	-752
▁ed	-753
pect	-754
▁did	-755
erest	-756
▁Lord	-757
▁ever	-758
▁orig	-759
▁whom	-760
ceived	-761
▁taste	-762
▁convers	-763
own	-764
husi	-765
▁adm	-766
▁mann	-767
▁times	-768
▁describ	-769
▁enthusi	-770
▁friends	-771
ics	-772
ink	-773
▁dr	-774
▁sy	-775
uced	-776
▁adv	-777
itions	-778
▁youth	-779
▁histor	-780
▁writers	-781
ha	-782
▁hand	-783
▁once	-784
▁prof	-785
▁exist	-786
▁through	-787
ally	-788
peri	-789
▁eff	-790
▁gra	-791
▁nor	-792
▁says	-793
▁gener	-794
▁authors	-795
lu	-796
▁2	-797
son	-798
▁pat	-799
▁suff	-800
▁volum	-801
br	-802
▁tal	-803
▁poss	-804
▁having	-805
▁imagination	-806
ber	-807
ract	-808
▁see	-809
▁observ	-810
uc	-811
ote	-812
pos	-813
ton	-814
▁St	-815
imes	-816
ince	-817
▁ide	-818
ute	-819
ific	-820
ined	-821
▁met	-822
vered	-823
▁bl	-824
▁war	-825
cript	-826
▁book	-827
▁opin	-828
▁shall	-829
▁interest	-830
li	-831
cho	-832
ances	-833
ually	-834
▁Such	-835
▁consid	-836
air	-837
are	-838
ecul	-839
▁His	-840
▁delight	-841
AC	-842
ix	-843
so	-844
man	-845
oli	-846
▁--	-847
▁Fr	-848
▁truth	-849
▁habits	-850
IL	-851
ti	-852
elf	-853
▁fac	-854
▁fav	-855
▁mor	-856
▁polit	-857
▁affect	-858
▁against	-859
ooks	-860
▁end	-861
any	-862
asm	-863
ouse	-864
▁fact	-865
▁last	-866
▁present	-867
.,	-868
aps	-869
▁acqu	-870
▁discover	-871
▁el	-872
ably	-873
inct	-874
oung	-875
▁sat	-876
▁name	-877
ertain	-878
▁nation	-879
▁nothing	-880
ob	-881
▁go	-882
ants	-883
▁fel	-884
▁mat	-885
▁love	-886
▁learned	-887
als	-888
▁mem	-889
less	-890
ality	-891
▁child	-892
▁curious	-893
▁express	-894
OR	-895
hip	-896
ient	-897
▁reg	-898
rench	-899
▁pref	-900
▁const	-901
▁medit	-902
ED	-903
HA	-904
▁co	-905
▁cor	-906
▁use	-907
▁occas	-908
▁secret	-909
IC	-910
▁K	-911
ages	-912
ments	-913
▁prop	-914
▁supp	-915
▁true	-916
▁view	-917
▁class	-918
▁early	-919
▁young	-920
▁cannot	-921
▁possess	-922
igh	-923
ull	-924
ère	-925
angu	-926
ught	-927
ural	-928
▁ele	-929
▁sim	-930
▁son	-931
▁pict	-932
▁French	-933
cess	-934
▁equ	-935
▁power	-936
▁whole	-937
▁labour	-938
▁spirit	-939
▁discovered	-940
;"	-941
▁sm	-942
ense	-943
▁sil	-944
▁They	-945
▁cond	-946
▁fort	-947
▁called	-948
▁collect	-949
IS	-950
OL	-951
▁Y	-952
ase	-953
aut	-954
▁TH	-955
haps	-956
idst	-957
▁mar	-958
itude	-959
▁self	-960
▁There	-961
▁feeling	-962
oll	-963
▁dec	-964
▁opp	-965
▁tem	-966
▁vis	-967
▁think	-968
▁trans	-969
eculiar	-970
▁master	-971
▁remark	-972
ft	-973
pet	-974
▁ey	-975
lebr	-976
owed	-977
ting	-978
▁car	-979
▁law	-980
▁pen	-981
▁peculiar	-982
ru	-983
erve	-984
ried	-985
ured	-986
ither	-987
▁influ	-988
▁appear	-989
▁celebr	-990
▁written	-991
--"	-992
▁Wh	-993
▁	-994
e	-995
t	-996
i	-997
o	-998
a	-999
n	-1000
s	-1001
r	-1002
h	-1003
d	-1004
l	-1005
c	-1006
u	-1007
f	-1008
m	-1009
p	-1010
w	-1011
,	-1012
y	-1013
g	-1014
b	-1015
v	-1016
.	-1017
k	-1018
"	-1019
I	-1020
T	-1021
-	-1022
A	-1023
E	-1024
;	-1025
S	-1026
O	-1027
R	-1028
x	-1029
L	-1030
C	-1031
_	-1032
H	-1033
M	-1034
N	-1035
B	-1036
q	-1037
P	-1038
'	-1039
F	-1040
D	-1041
j	-1042
W	-1043
:	-1044
G	-1045
U	-1046
[	-1047
]	-1048
J	-1049
1	-1050
V	-1051
Y	-1052
!	-1053
*	-1054
2	-1055
K	-1056
z	-1057
?	-1058
3	-1059
5	-1060
4	-1061
0	-1062
8	-1063
7	-1064
6	-1065
é	-1066
9	-1067
è	-1068
X	-1069
(	-1070
)	-1071
Q	-1072
&	-1073
æ	-1074
Z	-1075
Æ	-1076
à	-1077
â	-1078
ï	-1079
^	-1080
ç	-1081
ê	-1082
ô	-1083
É	-1084
ù	-1085
ë	-1086
È	-1087
î	-1088
}	-1089
ì	-1090
ö	-1091
Ä	-1092
×	-1093
á	-1094
ä	-1095
