<pad>	0
<unk>	0
<s>	0
</s>	0
▁t	-0
he	-1
▁a	-2
in	-3
▁the	-4
▁s	-5
re	-6
▁w	-7
ou	-8
▁o	-9
▁h	-10
is	-11
nd	-12
ed	-13
er	-14
▁m	-15
▁b	-16
at	-17
en	-18
▁f	-19
▁“	-20
on	-21
▁c	-22
it	-23
or	-24
▁to	-25
▁d	-26
an	-27
▁of	-28
ll	-29
▁p	-30
ing	-31
ar	-32
es	-33
▁th	-34
▁and	-35
▁y	-36
as	-37
▁he	-38
▁you	-39
▁in	-40
▁l	-41
▁n	-42
▁ha	-43
om	-44
▁I	-45
▁wh	-46
ve	-47
▁re	-48
ot	-49
id	-50
▁e	-51
▁be	-52
im	-53
se	-54
ic	-55
ent	-56
le	-57
▁g	-58
.”	-59
▁his	-60
▁sa	-61
st	-62
ow	-63
ly	-64
ce	-65
▁M	-66
▁that	-67
▁on	-68
ut	-69
ld	-70
▁was	-71
ad	-72
ill	-73
ith	-74
ion	-75
▁with	-76
ir	-77
al	-78
▁not	-79
gh	-80
▁as	-81
▁for	-82
▁it	-83
▁is	-84
,”	-85
ri	-86
▁me	-87
ver	-88
▁u	-89
▁de	-90
▁had	-91
?”	-92
ro	-93
ay	-94
▁said	-95
▁at	-96
ur	-97
▁C	-98
▁an	-99
am	-100
▁my	-101
▁st	-102
red	-103
▁T	-104
et	-105
▁him	-106
ght	-107
▁have	-108
▁A	-109
ct	-110
ch	-111
▁se	-112
her	-113
▁we	-114
ain	-115
ich	-116
ist	-117
te	-118
▁which	-119
nt	-120
if	-121
ould	-122
li	-123
ter	-124
pe	-125
all	-126
▁do	-127
ess	-128
▁The	-129
ke	-130
▁who	-131
▁sh	-132
▁ex	-133
ant	-134
ort	-135
and	-136
▁con	-137
▁so	-138
▁D	-139
▁your	-140
ount	-141
▁fr	-142
▁su	-143
▁but	-144
▁her	-145
▁this	-146
▁by	-147
▁k	-148
ap	-149
res	-150
il	-151
▁V	-152
qu	-153
▁will	-154
ore	-155
oo	-156
ous	-157
ef	-158
ard	-159
ell	-160
▁man	-161
ge	-162
ome	-163
▁r	-164
ble	-165
our	-166
th	-167
lf	-168
▁all	-169
au	-170
ac	-171
▁or	-172
▁li	-173
out	-174
▁from	-175
▁v	-176
▁B	-177
ert	-178
▁are	-179
ame	-180
pp	-181
os	-182
▁count	-183
ul	-184
ast	-185
ars	-186
▁al	-187
ran	-188
▁F	-189
▁kn	-190
one	-191
▁H	-192
hen	-193
ers	-194
self	-195
est	-196
ust	-197
ation	-198
▁one	-199
▁see	-200
▁ne	-201
▁no	-202
ine	-203
ak	-204
▁were	-205
urn	-206
▁then	-207
us	-208
very	-209
▁she	-210
ate	-211
art	-212
ang	-213
isto	-214
▁S	-215
▁ch	-216
ng	-217
onte	-218
▁would	-219
▁am	-220
ra	-221
▁Mor	-222
▁fe	-223
cc	-224
ind	-225
ig	-226
risto	-227
ven	-228
ost	-229
ked	-230
▁Monte	-231
▁Cristo	-232
ive	-233
hed	-234
▁rep	-235
ound	-236
ight	-237
▁pro	-238
▁know	-239
▁ar	-240
▁been	-241
!”	-242
▁Vill	-243
ved	-244
▁they	-245
efort	-246
▁Villefort	-247
▁P	-248
▁com	-249
▁le	-250
ond	-251
▁if	-252
▁what	-253
▁up	-254
ure	-255
un	-256
▁j	-257
um	-258
▁has	-259
▁ab	-260
ès	-261
ass	-262
ade	-263
Wh	-264
▁pr	-265
▁tw	-266
ather	-267
to	-268
ish	-269
ity	-270
ect	-271
ong	-272
▁wor	-273
ol	-274
ie	-275
▁E	-276
ake	-277
angl	-278
anglars	-279
▁them	-280
▁when	-281
▁hand	-282
▁Danglars	-283
ance	-284
ff	-285
ice	-286
ck	-287
▁ad	-288
ered	-289
▁ag	-290
No	-291
▁ro	-292
▁tim	-293
bert	-294
▁pl	-295
▁go	-296
▁un	-297
rel	-298
▁there	-299
▁Al	-300
ence	-301
el	-302
ough	-303
ated	-304
▁more	-305
▁im	-306
able	-307
You	-308
ood	-309
▁He	-310
ress	-311
▁ret	-312
ep	-313
age	-314
me	-315
▁young	-316
ose	-317
ment	-318
▁dis	-319
Yes	-320
▁us	-321
▁per	-322
lied	-323
ire	-324
anc	-325
ag	-326
ther	-327
▁only	-328
med	-329
▁qu	-330
adame	-331
▁Morrel	-332
ree	-333
▁Albert	-334
▁any	-335
▁can	-336
pt	-337
ile	-338
av	-339
▁than	-340
ite	-341
▁sp	-342
▁replied	-343
▁loo	-344
ought	-345
▁two	-346
nder	-347
antès	-348
▁some	-349
▁say	-350
▁time	-351
▁cont	-352
other	-353
▁Dantès	-354
ru	-355
▁like	-356
▁gr	-357
▁should	-358
▁their	-359
ward	-360
▁po	-361
cl	-362
▁Fran	-363
here	-364
00	-365
▁did	-366
are	-367
fore	-368
▁sm	-369
▁ap	-370
ry	-371
end	-372
▁into	-373
▁cl	-374
entine	-375
ave	-376
▁father	-377
▁ey	-378
ign	-379
▁himself	-380
ide	-381
reat	-382
▁day	-383
▁des	-384
▁out	-385
▁ent	-386
▁pre	-387
▁L	-388
ally	-389
alentine	-390
ace	-391
hing	-392
▁br	-393
▁en	-394
ened	-395
▁fri	-396
▁could	-397
▁very	-398
▁too	-399
▁return	-400
▁other	-401
▁Valentine	-402
▁made	-403
air	-404
ried	-405
itt	-406
▁fir	-407
ud	-408
ove	-409
own	-410
ise	-411
▁again	-412
▁op	-413
▁acc	-414
fter	-415
▁And	-416
od	-417
ving	-418
▁G	-419
▁Ch	-420
ink	-421
▁now	-422
▁door	-423
▁pass	-424
▁over	-425
What	-426
▁fo	-427
▁under	-428
ier	-429
oss	-430
▁rem	-431
▁R	-432
▁must	-433
ious	-434
ouse	-435
ary	-436
▁Franz	-437
ared	-438
▁res	-439
ach	-440
ife	-441
▁shall	-442
Oh	-443
And	-444
ful	-445
pl	-446
▁friend	-447
▁let	-448
ions	-449
ness	-450
amp	-451
▁It	-452
▁car	-453
ath	-454
▁spe	-455
▁Madame	-456
▁first	-457
Well	-458
▁before	-459
ab	-460
▁ob	-461
▁sir	-462
▁after	-463
▁bl	-464
ons	-465
▁even	-466
▁bec	-467
▁word	-468
▁off	-469
▁imp	-470
ied	-471
mb	-472
▁gl	-473
▁pres	-474
ack	-475
▁eyes	-476
ies	-477
▁every	-478
▁house	-479
uch	-480
▁ser	-481
,—	-482
▁these	-483
▁appe	-484
▁rec	-485
wn	-486
way	-487
▁ind	-488
cer	-489
erous	-490
▁may	-491
▁long	-492
▁turn	-493
op	-494
▁thr	-495
▁upon	-496
▁mom	-497
▁moment	-498
▁without	-499
▁No	-500
▁think	-501
▁much	-502
pect	-503
ors	-504
wards	-505
▁ass	-506
▁asked	-507
▁‘	-508
aint	-509
▁same	-510
man	-511
ue	-512
ull	-513
▁pers	-514
ase	-515
▁bet	-516
▁about	-517
▁mar	-518
▁our	-519
▁sc	-520
ible	-521
▁well	-522
▁old	-523
orn	-524
▁such	-525
▁tell	-526
we	-527
▁how	-528
irt	-529
ained	-530
▁att	-531
▁Th	-532
▁_	-533
ince	-534
aderous	-535
aderousse	-536
▁comp	-537
owed	-538
lie	-539
▁app	-540
▁just	-541
▁most	-542
▁thought	-543
▁Caderousse	-544
ci	-545
eft	-546
▁sec	-547
▁left	-548
▁co	-549
▁own	-550
▁whom	-551
ired	-552
▁look	-553
▁never	-554
iz	-555
ild	-556
▁W	-557
▁inst	-558
▁great	-559
ily	-560
led	-561
▁exp	-562
▁dear	-563
ord	-564
cerf	-565
less	-566
The	-567
▁three	-568
ili	-569
▁good	-570
▁Morcerf	-571
▁cons	-572
▁saw	-573
ause	-574
▁But	-575
▁bo	-576
▁still	-577
▁where	-578
▁returned	-579
ait	-580
▁part	-581
ret	-582
But	-583
ced	-584
▁here	-585
▁fl	-586
▁name	-587
ady	-588
ian	-589
▁N	-590
▁might	-591
▁come	-592
▁make	-593
▁vis	-594
aking	-595
ix	-596
ves	-597
ings	-598
▁ord	-599
▁happ	-600
▁head	-601
▁room	-602
▁ye	-603
riage	-604
▁exce	-605
▁while	-606
▁ho	-607
▁mean	-608
▁towards	-609
you	-610
▁underst	-611
▁poss	-612
▁Ed	-613
▁nothing	-614
▁heard	-615
▁its	-616
ished	-617
Ah	-618
act	-619
▁ri	-620
ison	-621
ail	-622
erc	-623
▁end	-624
ued	-625
▁cried	-626
▁te	-627
▁foll	-628
▁fort	-629
irtier	-630
▁those	-631
ms	-632
▁last	-633
▁take	-634
▁took	-635
ax	-636
▁Noirtier	-637
▁contin	-638
▁life	-639
bé	-640
▁gu	-641
▁cr	-642
hat	-643
ittle	-644
une	-645
▁franc	-646
ock	-647
oub	-648
cei	-649
▁francs	-650
ank	-651
▁hour	-652
▁little	-653
▁At	-654
▁“‘	-655
▁down	-656
▁serv	-657
▁sign	-658
ertain	-659
▁looked	-660
▁aff	-661
▁Be	-662
▁myself	-663
.’	-664
mond	-665
▁heart	-666
▁being	-667
aris	-668
ched	-669
▁through	-670
▁beg	-671
▁hands	-672
▁tr	-673
▁inte	-674
▁vo	-675
▁dre	-676
▁call	-677
hes	-678
rea	-679
light	-680
▁comm	-681
lt	-682
ere	-683
▁wish	-684
▁Paris	-685
gn	-686
▁O	-687
▁found	-688
▁light	-689
▁hu	-690
▁tre	-691
the	-692
ew	-693
tain	-694
▁add	-695
▁Andrea	-696
ray	-697
▁pe	-698
sw	-699
for	-700
▁adv	-701
per	-702
aken	-703
▁seemed	-704
thing	-705
▁seen	-706
▁Edmond	-707
▁em	-708
It	-709
ently	-710
hap	-711
nded	-712
▁give	-713
ale	-714
enc	-715
▁since	-716
▁You	-717
▁son	-718
▁answ	-719
▁fell	-720
ised	-721
that	-722
eed	-723
▁went	-724
▁passed	-725
▁mother	-726
▁having	-727
oy	-728
▁bar	-729
▁death	-730
not	-731
▁wr	-732
▁min	-733
▁ac	-734
oubt	-735
ty	-736
ever	-737
ilian	-738
▁another	-739
▁continued	-740
mo	-741
ict	-742
axim	-743
▁ple	-744
▁cour	-745
▁way	-746
ug	-747
ern	-748
osed	-749
▁belie	-750
aught	-751
▁dist	-752
▁excell	-753
▁letter	-754
aximilian	-755
▁wat	-756
▁conf	-757
eb	-758
sel	-759
most	-760
——	-761
▁suff	-762
ged	-763
▁cap	-764
▁words	-765
ark	-766
ured	-767
▁Beau	-768
▁understand	-769
éd	-770
ick	-771
▁alone	-772
▁find	-773
ber	-774
▁reco	-775
▁ter	-776
ia	-777
▁whose	-778
▁person	-779
aced	-780
édès	-781
▁men	-782
▁excl	-783
ercédès	-784
▁carriage	-785
aim	-786
▁yet	-787
▁rest	-788
,’	-789
▁supp	-790
▁Count	-791
▁voice	-792
iff	-793
vid	-794
▁dra	-795
▁Then	-796
▁place	-797
ip	-798
▁ke	-799
▁pur	-800
▁child	-801
▁right	-802
▁es	-803
▁gi	-804
int	-805
▁wait	-806
ention	-807
▁This	-808
▁Maximilian	-809
champ	-810
▁leave	-811
▁J	-812
rest	-813
▁occ	-814
▁ref	-815
▁open	-816
ceived	-817
ition	-818
▁inqu	-819
▁mind	-820
ited	-821
omet	-822
▁hon	-823
▁abbé	-824
elle	-825
iness	-826
▁years	-827
▁present	-828
ject	-829
▁int	-830
▁half	-831
▁doubt	-832
ne	-833
arn	-834
ory	-835
▁Mercédès	-836
▁yourself	-837
▁night	-838
▁entered	-839
——”	-840
ined	-841
▁sil	-842
▁poor	-843
▁Beauchamp	-844
ately	-845
ither	-846
▁speak	-847
ways	-848
▁back	-849
orr	-850
▁ut	-851
ener	-852
apter	-853
▁feel	-854
▁read	-855
▁going	-856
ner	-857
ully	-858
atter	-859
▁came	-860
▁told	-861
▁almost	-862
▁express	-863
so	-864
▁dep	-865
▁yes	-866
▁Chapter	-867
alc	-868
000	-869
Why	-870
▁love	-871
ks	-872
mois	-873
uring	-874
▁against	-875
em	-876
ren	-877
▁di	-878
,000	-879
▁mis	-880
▁arri	-881
▁prom	-882
▁opened	-883
moiselle	-884
▁ins	-885
ps	-886
ency	-887
oman	-888
▁once	-889
ec	-890
▁aw	-891
fort	-892
▁mon	-893
▁inter	-894
but	-895
haps	-896
vent	-897
▁least	-898
▁always	-899
ger	-900
sed	-901
▁sub	-902
tered	-903
▁lo	-904
ower	-905
▁turned	-906
irl	-907
▁sur	-908
▁exclaim	-909
den	-910
▁step	-911
▁away	-912
▁world	-913
▁forg	-914
▁wind	-915
up	-916
▁believe	-917
▁quite	-918
▁somet	-919
arm	-920
▁As	-921
rave	-922
▁done	-923
▁stran	-924
▁2	-925
ult	-926
king	-927
▁ide	-928
▁four	-929
▁fortune	-930
▁act	-931
oth	-932
ousand	-933
aughter	-934
▁appeared	-935
aut	-936
▁In	-937
▁girl	-938
▁soon	-939
▁prison	-940
▁exclaimed	-941
▁ra	-942
fect	-943
io	-944
ached	-945
ating	-946
ebray	-947
▁requ	-948
▁visit	-949
teau	-950
▁ten	-951
▁baron	-952
▁fam	-953
▁smile	-954
▁Debray	-955
▁excellency	-956
Then	-957
▁cannot	-958
Do	-959
les	-960
▁Saint	-961
▁thousand	-962
▁bed	-963
ademoiselle	-964
ens	-965
▁	-966
e	-967
t	-968
a	-969
o	-970
n	-971
i	-972
s	-973
h	-974
r	-975
d	-976
l	-977
u	-978
m	-979
c	-980
,	-981
f	-982
w	-983
y	-984
g	-985
p	-986
b	-987
.	-988
v	-989
“	-990
”	-991
k	-992
I	-993
;	-994
M	-995
A	-996
?	-997
T	-998
x	-999
C	-1000
’	-1001
—	-1002
D	-1003
B	-1004
W	-1005
-	-1006
V	-1007
H	-1008
q	-1009
Y	-1010
!	-1011
S	-1012
F	-1013
0	-1014
j	-1015
N	-1016
z	-1017
P	-1018
é	-1019
E	-1020
O	-1021
_	-1022
è	-1023
L	-1024
‘	-1025
R	-1026
G	-1027
1	-1028
2	-1029
5	-1030
3	-1031
:	-1032
J	-1033
4	-1034
7	-1035
8	-1036
â	-1037
9	-1038
6	-1039
É	-1040
U	-1041
(	-1042
)	-1043
X	-1044
&	-1045
K	-1046
Q	-1047
æ	-1048
ô	-1049
[	-1050
]	-1051
î	-1052
œ	-1053
ï	-1054
Z	-1055
ê	-1056
à	-1057
ç	-1058
*	-1059
ν	-1060
ο	-1061
α	-1062
μ	-1063
π	-1064
τ	-1065
ρ	-1066
δ	-1067
ε	-1068
ἰ	-1069
ὲ	-1070
ὸ	-1071
†	-1072
$	-1073
Æ	-1074
ë	-1075
í	-1076
ü	-1077
Œ	-1078
Ε	-1079
Π	-1080
έ	-1081
ή	-1082
ί	-1083
ζ	-1084
η	-1085
κ	-1086
ς	-1087
σ	-1088
υ	-1089
ό	-1090
ἄ	-1091
ἡ	-1092
ὄ	-1093
ὶ	-1094
ῖ	-1095
